function [y1] = myNeuralNetworkFunction(x1)
%MYNEURALNETWORKFUNCTION neural network simulation function.
%
% Generated by Neural Network Toolbox function genFunction, 19-Sep-2017 14:22:08.
%
% [y1] = myNeuralNetworkFunction(x1) takes these arguments:
%   x = Qx1 matrix, input #1
% and returns:
%   y = Qx1 matrix, output #1
% where Q is the number of samples.

%#ok<*RPMT0>

% ===== NEURAL NETWORK CONSTANTS =====

% Input 1
x1_step1.xoffset = -15.9115789750221;
x1_step1.gain = 0.0433172822346642;
x1_step1.ymin = -1;

% Layer 1
b1 = [13.549181081897729;5.1973221592420353;2.3144409157601751;0.24092796531822702;1.5636812954651265;-2.7875901327184103;-2.3318158384926422;-11.792475284766793];
IW1_1 = [-9.816242134891775;-6.4540995552830456;-4.9293019192415475;-5.5809001312933812;9.1212527015702012;-6.1582493883218472;-5.0312927309310727;-12.791745883148062];

% Layer 2
b2 = -0.48346299915893287;
LW2_1 = [0.46929005619317415 -0.11784796199723996 -0.25085167347019965 -0.19706077547277975 -0.046091370415314151 0.89565719208646544 -1.3033535203056772 -0.084367777090999352];

% Output 1
y1_step1.ymin = -1;
y1_step1.gain = 0.0449484158289543;
y1_step1.xoffset = -15.9820660335978;

% ===== SIMULATION ========

% Dimensions
Q = size(x1,1); % samples

% Input 1
x1 = x1';
xp1 = mapminmax_apply(x1,x1_step1);

% Layer 1
a1 = tansig_apply(repmat(b1,1,Q) + IW1_1*xp1);

% Layer 2
a2 = repmat(b2,1,Q) + LW2_1*a1;

% Output 1
y1 = mapminmax_reverse(a2,y1_step1);
y1 = y1';
end

% ===== MODULE FUNCTIONS ========

% Map Minimum and Maximum Input Processing Function
function y = mapminmax_apply(x,settings)
y = bsxfun(@minus,x,settings.xoffset);
y = bsxfun(@times,y,settings.gain);
y = bsxfun(@plus,y,settings.ymin);
end

% Sigmoid Symmetric Transfer Function
function a = tansig_apply(n,~)
a = 2 ./ (1 + exp(-2*n)) - 1;
end

% Map Minimum and Maximum Output Reverse-Processing Function
function x = mapminmax_reverse(y,settings)
x = bsxfun(@minus,y,settings.ymin);
x = bsxfun(@rdivide,x,settings.gain);
x = bsxfun(@plus,x,settings.xoffset);
end
